FF29
03CC
FDE0
FFD8
FEFD
FB1B
01D3
04CD
F7EA
FB95
0085
0340
FF52
0163
029A
0A76
0745
FEF6
0210
FEFA
FAAF
0397
FEF9
0128
FE22
01AC
00B5
FEE8
FD02
01EA
027E
FD40
041F
0589
01A8
01D1
FD87
F8DB
056A
FDC3
009E
021B
FE52
FC43
FA78
02CA
FC44
F890
06E6
01AC
0009
FEED
F995
071C
098C
FD62
FFCE
03A4
0140
FB11
F935
FE16
FD52
014B
08FE
F7C2
000E
009E
FE53
FA82
FEE9
FDBD
FC15
020E
0450
FE52
FEB2
FCA2
0147
0154
050B
FF62
01F7
035E
FB7A
0079
FD40
08B0
FB11
FA26
014F
FE38
008A
01B4
FA4C
0246
FE76
FD5F
0022
0763
037E
042E
FFAD
00D8
03C8
FB27
FC8D
FD86
01D4
FBDE
FE28
00D2
FE2E
06BE
0417
00C6
FED1
0623
0400
FF20
049D
05DB
04C7
02AF
0487
06BE
FE4C
02EB
0119
FAEB
FB72
FE54
FC2C
FADA
00B1
FF42
FC53
0816
02D7
FE90
FDAD
FEB1
0419
0459
FBA2
0252
01F7
02C1
FDDB
02A2
002D
0410
0164
0548
0295
0596
05C0
FA73
03CA
FE07
0112
FBF2
FFEE
0015
FED1
0573
FD52
FC63
0141
07A3
006E
0254
01E5
05D3
FE39
08A4
FFD5
FE60
FE9D
07B0
004A
0147
FFAB
FEC4
FCA0
021C
0338
05CF
FBBB
0170
002C
01A9
FCAB
024F
01BA
FBD5
05A0
FCAD
01D2
FD84
FF1E
FF26
00B0
FE75
FA79
0866
034C
00AB
02BE
FFC4
01C7
0513
FE60
0112
0598
F90B
FE1E
FCAA
0288
036D
004A
FC1C
012A
02D0
0689
FF66
FDB8
FE13
04FB
01D4
013E
02BA
FF13
FD63
081E
00CC
FC59
00F0
F905
FB8F
0215
FF17
058A
023D
FEEE
FAC9
F954
0064
FFB1
FF64
FB45
00CC
017F
03E6
FF9C
01FC
0095
FE87
FF84
FCAD
043D
FD04
FFA0
0223
FB76
FE75
FA09
FFF3
FDE7
022D
F8C0
FB3A
03CC
FCE0
0344
0135
0527
0103
FD2C
FFAC
FFCB
F752
FF98
FE06
FCAC
02BC
FD2E
0242