004D
FDE4
0020
01D8
038D
0152
FDCB
011E
FF47
00F2
FFBF
FE97
FF8C
FFAE
FDFC
00D3
0161
FC24
FD72
01C7
FEF5
FD60
FD7E
FDD0
00A4
02AA
FD32
001B
0390
FC29
015A
FC73
FE4D
00E6
FF92
0020
021C
0128
0150
0185
0071
FFC6
FEC6
FE3C
FE11
FEB8
0159
FF2E
FFE6
FEB7
FECA
FF5F
FED0
FF3B
FE90
01C1
0372
FF4A
FEA7
01BA
FEB0
FD58
016A
0194
01E1
02E0
01E9
FE7A
FBF0
FE73
FDB0
003E
FDE8
FF9B
0224
FF5B
01A3
FEF1
028C
00D4
0135
FE4C
0404
FFA0
0170
0324
0228
009C
FEE4
0149
FCB4
FF3B
018A
FF48
02C4
FDEA
0260
FE6E
FDB4
0027
0184
FF3F
FF2C
01FF
FF2E
0030
FE1A
013E
FF3B
0012
FFD3
FF3A
0043
FEAB
FFDC
FE28
FF10
0120
02E1
FF5E
FF24
FA4C
FEB7
011E
FD82
FDC2
FDA4
0012
FFB3
006D
FF00
FD50
019F
0190
00EF
01BC
016B
FBF5
0258
FF91
FF66
FE0F
00B1
FEA1
0009
FDBF
FF88
026E
0114
0111
FFB4
FD63
011D
01E6
014F
0098
FDB3
FDE2
0350
FE9D
00A8
021A
FE8C
FCEC
0114
01BB
FEFC
0032
020E
FE2A
FBB9
030A
026E
0082
FF02
000A
00F0
0030
F934
FEEE
FD06
017D
01E5
00A9
01B3
00B6
FCD2
FDE4
FE91
FD64
0035
FE67
0128
FEEC
0090
0105
0262
FF88
FDEE
FEEF
02CA
FF8F
0094
00FE
0043
010C
00C9
FE36
0007
FEE0
FCA4
0033
00F0
FD50
023B
00EF
01E9
008C
017F
FC85
FBD8
FF4D
FF9E
0137
FE97
FF68
FFAC
FC81
018D
FF2F
0047
FD80
FBD2
FF41
FE8B
01EC
FFFE
FFF3
03CC
01B0
0056
FF44
FE44
FE87
FF84
0045
029C
FFDD
FEC0
FF24
FD9E
023C
FE1E
FEF8
FFEB
FE61
FBA7
FF81
0164
FCBC
FFE9
FB87
004E
022C
0148
FEAB
FF06
FC38
FD46
FDF7
FBFB
0112
00FC
0115
FF92
00C0
01A7
FBEA
00D6
FFC7
002B
FF88
0248
00EC
FFD1
00BE
FF87
FE7A
FE23
FE32
FC18
01FE
FEBB
FD24
FFDF
FE66
FF88
00E1
FFEB
FEDA
FCEA
FF08
FE03
0041
FE62
FF0B
00A3
037C
0212
FD0A
FE96
017F
FF17
01E7
00ED
009E
00B2
0177
FFCF
00E4
025A
FFB3
FF9D
03D0
0019
FE18
FD7C
FD96
006F
00D3
FDFA
010B
004F
FFD8
00EA
FF89
0280
02A4
003D
FE80
FF80
01CE
00B1
002E
FDF6
008F
FF5C
00D0
0034
FF18
0217
FFE0
01F8
006B
FE1C
FE49
FE89
FF25
FEB4
0094
01C8
FFBE
0182
01AA
00B9
00F8
FF39
FE00
FEEA
FE3D
03B3
025E
FFAE
FF8E
FFB1
FC56
00A3
FDE7
FBE6
00F7
01EB
0078
FF1F
03A5
00B1
00FE
0101
FD6E
FEA0
FF4B
FC3A
FC77
00B6
0222
FB78
FF7A
018E
00B5
013E
FFC2
FDE4
0084
FE4A
FE66
FF35
FD74
01A6
00B4
FD5C
FF5C
FE0E
FEF4
009E
FFC0
0371
04F3
005D
FF08
031C
0042
FC4E
FE88
0056
FF5F
FE9F
FF59
FFBF
021D
0298
FF78
0061
FE15
0123
FE60
FF08
FFC0
02B7
024E
FF11
0025
FEC8
030E
FEB2
FF93
01A7
FEB8
FD94
027F
FDC2
FD58
0132
03E4
02B8
FE52
0392
0001
FEE1
01EB
FF8B
FC73
0225
00EC
FF2D
FD9C
00BF
0052
00FC
00FC
006A
FF0B
FB4E
FD57
0180
FD23
01A8
0141
002C
01FD
0181
FF47
01EF
FD9F
FE31
030D
0009
FFEA
0204
01D7
FE1E
01E7
FF86
032E
02E0
0122
FEB7
FF2D
0080
01FB
0136
00C4
FCE0
FC41
FF60
018F
006A
FC00
01B3
0226
000A
FF0D
018C
FFB7
00FE
FDCF
039E
018F
0122
03CA
00AE
FE80
014A
011C
0208
0009
0396
00F6
FD92
FE26
FD24
FDC6
0001
FC07
FBE4
FF20
036A
FF89
009A
002E
02F2
011C
FF64
01F6
FE82
FD70
00FF
FC72
01A3
0200
00F4
001E
FF9F
FF4F
FDF0
014E
FCD8
015F
01D7
FD86
005E
0057
FFBE
FFF3
0282
0077
0139
03B7
00B6
031C
FF48
00C9
0218
FF51
FF62
019C
FE1F
FEA0
FD4E
FF12
00B8
00AC
FE1C
FEC2
04D5
0006
FE23
FDE0
FE0E
0466
020A
FEC7
0087
023B
FFEF
0239
FEBA
0056
FEC5
02A2
003C
0019
0284
00B7
01E6
0025
FFFE
FE45
0018
FA79
028C
0033
FD66
FE79
FEDC
FDA2
0035
FFFC
0144
FFCC
03FB
00FD
015C
FE6A
FE27
0268
00E4
FE69
0086
0262
043D
02B5
FE65
FFBE
0325
FF9E
0249
FF6B
0408
FF44
014B
0042
0090
00D3
008C
FFD6
025C
FFAE
FC7A
FF62
008E
001A
FCFA
0195
007F
00A7
FBCF
FFA1
FECF
008C
013E
0206
001E
0176
003E
FFDE
00BB
013E
F9ED
FE94
FEB3
FEF0
0178
03D0
00CA
017F
FEA0
01D4
FF5E
FE71
FC72
FE6E
0089
02B3
FF9B
FEDF
017E
FF7D
FEA8
019E
FE42
FF6C
FBF5
FE00
0254
0248
FD7E
FF1D
FFF0
029B
0158
FDAD
FCB4
FDAE
0142
FE7E
FFE2
FE14
FF6E
FE9B
FE6D
FED1
0232
FFF1
0050
FF21
FE33
FE2C
FE7F
00C8
020C
00DA
02BA
FFAE
0048
003A
008A
FD1A
FE1E
FEA8
FE39
FF4A
0179
00B4
009E
FDB2
FEFC
001C
FF6E
FF4D
FEBF
00A5
FFF6
017A
00BD
00DC
FFA0
001E
FE22
0037
00DB
FE73
0189
0014
FD62
007F
FCDD
00BE
FFE4
0056
0198
001C
FE44
FF84
0078
FFAD
00F4
0004
FCE6
FFC7
00BE
FFAE
FE8A
03A5
00FD
02B1
00F6
FECD
0146
00F8
019D
01AC
0232
02BB
022D
FD0A
012F
0137
017F
FEAC
FEFA
0090
FF1B
0138
009D
FF72
FD02
FF40
0044
0022
FECB
FD74
013F
00C0
FF83
01F2
002A
FCDC
FDF6
FDD6
FF4D
001B
FC97
FFC9
FDBC
00E8
FEFE
FE8A
01DB
FFA3
00AF
0038
00AB
0037
FF17
FDB7
FDD0
00A2
0374
02BC
FD2A
0120
FD6E
FF5B
FD08
FFBD
FE44
01D9
01D5
FEDF
FF1E
FF23
FEF6
FCEA
FED4
FB09
FF91
0093
00D6
03E4
FF39
FFF8
FFB6
025D
FE11
FFF4
FF38
FED6
FCA5
FD36
FD90
014D
FDF7
FFFE
FDAA
FF7C
014A
FDCF
007B
FD90
FBE9
FE1B
002C
FF08
FCDA
FE6A
0390
0018
FFA8
01C8
01E0
FE5A
01BE
003F
0128
007D
FB7A
0222
FE6C
FECC
FFC0
012A
FDC8
FE28
FEAA
0380
03AE
FC7A
003C
FCFA
000D
FE92
01D3
FBD6
FBF1
FD3C
FECE
023E
00BD
FE3C
FE86
0141
0167
FC0F
FFEF
0137
FF08
03E4
FE53
FDF8
00C0
00C5
02B9
FFB4
FE5E
0114
FFFB
FE65
00E1
FD67
0000
0082
FE5F
FFA5
FE2F
FF03
007A
FE93
FDD5
FFB6
0270
FDE2
01EA
FC62
00BC
FF4E
FFD5
013B
FFA3
FC26
FF42
01C7
FFFB
00F1
00E4
FF11
0326
FDAA
017D
0146
FF9B
FDE5
0019
FF33
019A
0127
FEAE
FF97
0298
FFD8
FDE8
FED2
FFAD
FF7A
0434
FEFA
FF4A
FE57
FF31
FB5B
00CE
02FE
FFBE
FFB3
FC42
FD8E
FEE1
FE3B
FF92
013C
02BA
FFDF
FE8D
FFAC
0077
03A6
FFF8
0137
FBAC
FFF2
FE8B
01BE
032C
FED2
0044
008A
FDA0
FED5
0108
0145
0045
FFAC
001F
FFAD
0099
02D8
FBA5
FE7E
0079
FCEA
FEAD
FFB5
FEA5
FF51
00DD
047F
FD3C
00D1
FDFA
FEE4
00F9
FF92
FF39
00C6
FDFE
0054
FF71
FD02
FCBE
FDCA
FDBE
FE8C
0176
FF69
FFB8
009B
0280
0200
0430
FDB2
FFD0
0079
FF92
FFEE
019B
FDEE
002C
FF46
FD22
0057
00DB
FE8C
0110
03C5
004D
FE6E
000F
FEAD
FF9B
00D1
FF9C
FD8C
013E
02B9
017D
FEDA
FC72
FF12
011A
FEC6
FCD7
FDDC
01BA
FF0B
FE10
FF45
FF70
FC13
0062
00BA
FDC2
02A0
FF8B
FD1E
FF6C
020C
FFCA
FD8A
0188
FED1
FBBD
00EB
FE9A
FDE0
FF27
029E
FEED
015A
004D
002E
FB79
014C
01C2
FD62
02E7
FFC5
0019
00A3
FDC2
FF45
FEAB
FD11
FF00
024C
FDD8
0018
FDAF
FCCC
015C
FF46
FD08
0037
FE13
0030
04C2
0318
029E
FF4E
FF73
0101
FD14
0310
FF8A
FC8A
FFFB
FDF2
0117
FFDC
FDAC
032D
FE54
0035
FF94
0018