038A
01DA
0336
FE63
FABC
0007
FE24
0251
FF2A
FFAF
FDC4
FF08
FCA7
FCC0
00E0
FED9
03B5
0094
0258
00C5
019B
00F6
FF0D
016C
024C
FDCF
FA84
028C
0248
FFBD
0138
FE93
008B
0127
0197
FF2A
FCB0
06D0
F99B
FDEA
FE2D
04F5
FD90
FFC4
042C
0344
FC90
FC9B
FB83
FAB7
FCD9
012C
FC30
FF07
02AC
006A
006C
011C
F98D
FD1A
0170
04AC
FFF7
0432
FD80
023D
01E7
FEF9
FEBE
FEBB
00AC
FFCC
02F2
FC9A
04B8
06DF
FEC9
046C
01F0
0342
02E2
00A1
005E
FF0D
FB1D
01E0
FE88
FF81
FDF1
004F
0288
FF20
FCBE
FFD6
050A
0058
FE79
0349
028A
FF04
0340
00D3
FD26
053E
FF4E
FFA5
029F
FF20
0173
0860
FF74
FD52
FCA4
FE2E
000A
FF75
00B1
FCF2
0301
0381
FDE2
00D7
0184
0404
FD8A
01C0
FFF3
0091
FE7D
FDE1
FEE3
01D2
FF59
039C
00ED
FEE3
FE9C
FE37
018A
0043
FE3D
FDDB
01D4
FE42
FF95
FFDA
FFAC
02C8
00D6
001C
0556
0049
FEA8
FB35
FD87
0341
04E0
FF77
F736
01E1
FDCE
03C6
0367
0102
0421
0163
FCDC
FD4E
FF88
FDF6
FC70
000B
0053
FF42
FBD3
007C
FFD1
FD57
FB55
FED6
0088
01A1
FCE8
0058
FCAC
0169
FAE7
FABD
02FA
00D1
00CE
FE7D
01CD
00DC
FD61
059B
01C0
036E
FE26
FC5C
FCF8
0016
068D
FFF8
FEC0
FC9C
FFB4
02C6
FCAC
FF36
03CE
0036
FE64
0354
00A4
009B
FD84
FDD4
FFE5
FBE6
FD8A
00D3
FD0C
005E
FEA6
01B8
F7FA
FD8D
FE3D
0253
FA0B
FE5B
0224
FF5C
FDDD
0152
037A
0336
06ED
FFDE
00C1
01B8
FFDD
FF20
0089
FD11
0174
FF74
FF6C
0027
FEEE
0316
047B
FE80
011C
003E
007C
FF3A
FE27
00F6
0025
030C
FD72
01BC
018A
FAA0
FCF7
02FE
FC7E
0278
0100
00A4
02D1
FFEF
F91C
FF66
FD49
0084
0201
005A
FE59
FF9E
FFF1
00C0
FE21
0036
0392
00BF
FF6E
FD0C
FEFB
0100
0232
048C
0276
0187
0030
0362
FF1C
006B
023D
02D0
015C
FE92
FFEB
FFA0
FE1A
006D
03FF
FEE9
004A
0054
00E6
FE4C
FD32
FDD0
0264
FE42
FEE0
035E
00E0
FF57
FEF7
FF86
02C4
0113
0320
0306
0074
FDBA
FCE8
FBBC
FF6F
03CE
FDE8
0256
FF75
FDFE
02F9
FE8D
FF46
FEBE
0006
00BA
0048
0272
0288
FFA8
FCA0
FCEC
FB51
FF92
FF4B
037C
000E
0104
FDA0
FC80
FC2F
FB8E
050C
FE66
048D
FEDC
03EA
0153
017B
0165
FE17
FE74
0250
0162
00BD
FCB2
0288
003E
FFF8
0165
FF83
FD72
0234
FB5A
FE92
FDCD
0008
FFB5
0408
FFF5
FFA6
0484
FA16
0085
036E
0068
FAD9
FF70
FFCC
00A8
016C
019E
FCB4
0370
FE0C
FDF2
F821
0232
FE61
FCC2
02FE
0024
0207
FE8C
FFFC
01D6
0007
FD9A
01D3
0054
0455
0002
FE27
011E
004A
FDC8
0298
FB92
0396
FEEB
0171
03FE
FD66
FF31
01EF
0358
01D0
003B
FDB2
FFE7
03B6
FF2C
FF70
0299
02C0
0120
016F
01E8
FCF8
FD8E
0694
017D
FE3A
FC3E
FED0
FAA1
0004
FD5C
FE84
015C
0291
023E
0179
FCC2
020A
FBF9
FE58
FDEC
FE56
FF44
0141
0238
037F
FFC6
0412
FE2D
FF3D
000A
FEF7
FFEE
FD52
0708
01E4
0031
FA67
FEBC
0025
FD48
07D0
032F
02AA
0392
00BC
FE1C
04E8
FF75
00CF
033A
FE4D
FF8D
FC8E
0556
01BE
FF09
FEEE
04E1
FD01
FFAC
FFE5
0123
FC0E
031A
FBF5
0254
FCAF
0118
026A
FE71
0208
FFDE
FC1C
FF20
0352
FEDC
0131
0384
0101
030C
0077
039D
01F6
0321
FDF0
012E
FEDB
0331
FC78
FE73
FF56
FEAE
055F
0306
FDA3
FF80
03E8
0061
044D
0368
FF48
FF47
01BA
0356
006A
FDD4
01C3
0200
04AB
00B1
01EF
FDDB
0551
02F5
04B9
FFB5
FE62
FA8A
017D
FBE4
FD04
03BE
0122
FE81
FDAD
0384
017D
02DA
019F
011B
0018
FF9C
FAEF
01DF
008E
FE27
FFEA
FDE2
0099
0104
0136
000F
FF88
FA89
00CD
047A
0126
0207
058E
03C7
FF9D
FD24
FEAF
00D5
FFE0
FC36
00BA
01DA
FFAD
F96A
FF1A
FFCD
FE82
FF62
036F
02C0
0035
01EE
FD4C
FF87
03E4
025A
041E
FBD8
FDC1
01B6
FF31
00EC
FF85
01AF
FF29
0042
FEC2
FEF0
FC1C
039A
01F8
FFA5
FD53
FE09
FF56
FCCE
FA2D
FEAB
FFAD
FF36
0284
00F8
FC9E
FFB3
FE12
030A
0324
FF53
FF39
FB7B
FCF6
01FF
00C8
FDB3
0116
0026
FE53
FC34
00CC
FED8
FBC8
03C8
FCEE
0035
0233
02C5
FAA0
FF8F
0093
FDB6
0199
063F
0098
FBDB
FD62
FC90
FE6C
FA85
FD5D
00C2
F99C
0179
FD3A
0076
FEB2
0096
FBF2
FE16
FF35
00A1
02C0
01FD
00BC
FE22
FA73
FEBC
FECA
022C
FF42
01BA
FF7A
FE22
004A
0174
FF8B
FE58
FFF5
FD70
00C4
04CB
016B
FF7B
FF46
FE41
01CC
0437
FC78
FCF8
004E
0141
00B3
FE7D
FC82
FE07
007B
00CD
05D8
0027
FEE6
FF2A
00D4
FDCA
013D
03F6
00DB
0052
FECF
FF4E
0143
FD34
0190
FF42
01C5
FF9E
FDD3
0105
FF65
021B
FCE2
FCEE
FE0E
0281
0520
FE4C
02BA
002E
0248
FC5A
040A
00DB
03D2
FF04
00DB
0090
008B
01D6
FE1B
031C
0100
FF6C
FFE5
04CD
FB72
00AA
FE88
0104
FC2C
026E
00E1
FB8F
FCB2
FE04
013D
0088
01CF
F8DF
0029
014A
FBFA
FEA3
FF91
FE08
041D
FE91
FFF6
FFE4
FEB2
01B0
0188
04CD
00CF
031A
FE32
02DF
038E
0192
0549
040B
FEC8
FD00
FECB
FFBC
FC24
0692
0199
02FC
02BF
FD9E
0050
FE2E
005D
FF56
FD64
0006
FF9C
02DA
02C2
FF4E
FFC0
FF14
FFDC
015C
FD68
030C
0183
FE0F
FE7C
02CA
FE72
02FE
02F2
FCC2
05DD
0184
FD14
FF4A
0236
FDE6
FD44
FE48
019D
FE76
FD8C
0396
012C
FCF9
00D8
00DA
0354
003C
0279
0017
FEE6
FF43
02CC
FF62
01F0
FD78
00AF
FFE5
FFD0
FFCC
00EF
FDE1
0062
05DD
FB57
0374
002D
FB21
01B3
FEE4
0320
012A
0384
047F
02EC
FF3A
0634
00B2
0117
0017
FEDF
0097
0289
015A
00D0
0088
FEC5
FE13
FB2B
FB3F
FE37
00BD
0189
0316
00A6
FFF4
FF72
01A4
FD22
021D
FF5F
02D7
002D
0172
0309
FE9A
0079
FB97
FE45
02FE
FF5C
FE63
01E1
01D7
FEE6
02DF
01AB
FD6A
FB2D
0194
02EB
033C
0298
FF2E
0093
FC0D
0080
00E5
030A
0372
00EF
FF9B
0089
FF3A
01F6
FE39
04D8
0121
FFAF
FF48
FFCD
FD40
0563
0310
04A5
FF70
0112
06F0
FCC6
FFF0
0559
0598
FF85
0174
FD4E
00A1
FFBE
FDCB
FD59
007C
00E0
049B
FF80
FE88
0130
00F3
FF9D
03A4
01FF
FED4
FE76
0496
0326
0080
0316
FF29
0286
FC5A
002F
FEE2
009D
FF82
018C
FE3C
FF93
0007
004E
018B
FD66
FF0C
FF2A
0100
FDCA
F936
00FB
0028
FCB1
FEF9
FF8F
FFCC
01E3
00C9
0303
FE96
000F
0265
0190
FD44
F903
FE87
FAAC
0554
FE2B
FEE4
0065
0047
0028
01DD
002E
04AC
0183
F931
055D
FBD6
020E
01FA
FD68
0419
0226
00A1
02A8
FE22
010A
FDBC
FE41
FBCE
01B8
038A
FECC
FF5C
FD30
FFD5
FC74
07BE
022A
FDCE
038C
FDC4
FE2A
016B
F9BE
FF37
FDE4
FEA5
0088
FA79
FC4C
021C
FF40
FBBE
FBD2
FDD4
FFBE
0228
FEF6
FF1D
01B4
FEAA
0234
FD84
0281
003F
0022
FC64
0217
FFFC
0360
FD86
0079
FC59
024C
026E
0300
01C2
FF00
06D3
FE33
042C
FF52
FD0C
08A8
01DE
0266
FCB8
03EA
FED2
01D3
FDB0
FE58
FCE0
FE47
0095
0276
FF24
FB56
FD9C
FFD4
F891
0373
0158
02A2
FE2E
05A6
046A
FE66
FFF4
FE25
01E4
FE8B
FF8C
FF68
0192
02CD
FF82
02A5
002B
028C
FCCA
FD51
01DE
FB53
FDCA
05EB
FC0A
FD66
FF47
FF0A
02A2