FD17
FBE0
0124
FBD2
0314
04CE
FE7E
FE6C
FAC5
FE2E
0236
FC82
055C
039A
FD10
031A
FB78
F676
FA36
0012
0980
0238
020E
FB5B
FE7E
FFF9
FF76
058B
0162
0083
FF7F
FF5D
FF92
0162
F4C0
0331
FF4A
01F1
FF91
FD6A
04DA
FD65
FFA5
03E7
FA7B
FB21
009C
00BA
022A
0366
01C0
04D1
058F
08A4
FD22
FF72
FFCF
FBA3
FB18
05DB
0108
FB62
FA3A
FC30
0409
05D4
FB25
F920
02FC
FCFA
021D
04CE
0122
01B3
0472
01B2
FD22
0103
0153
FBCC
019F
02DE
025F
FE68
01FC
FFB7
FCBB
FD71
0236
02EA
061F
0886
0176
0411
0410
00EB
F93C
000A
00BE
FB9D
04CF
FE11
043F
035A
FFEB
F9CF
FF99
02C4
0252
FAC0
F86A
006C
FBC8
FF1C
0780
FE3F
FD39
0518
04C4
FBDB
FE6F
FE0A
022F
0517
FAC0
FD06
0344
F3EC
007E
FCF2
FB11
FD90
0392
FA4C
020F
0324
FC2E
00FB
07AD
F84E
03E4
0605
F742
FBB3