FF8F
FC03
FE51
FD97
002C
025B
FF1A
FAA3
0588
00AE
FD1A
049E
FEAC
00AE
FFEE
FDE6
0292
0086
035E
02DE
FB3C
03E2
FCD8
0151
0052
FBE8
02A8
FEA0
0244
FB40
FF45
02E2
001E
FD8E
007E
000A
0170
0223
013E
FF1B
FEE4
FBF7
FDF0
003F
FD7C
03DD
0296
0352
FBE2
023E
FE6D
FC3C
FDF6
0319
FD16
01F8
FFC1
FDFE
0024
00FB
FF07
FD8C
000E
02EE
FBA0
FCDD
0256
FF12
FD72
0016
0214
F986
FE50
FFB9
0109
FBC7
FF2C
FEAC
FFAD
0180
FD5D
FBFA
FEC5
FF9E
FE35
015D
00C7
009F
0275
FF66
02EE
FD18
0222
020A
FEF4
04D2
FFED
FE2B
0050
F96E
0447
FD17
FBE2
FF21
016B
FBE5
FB23
0241
FF4B
FEC6
FDCA
FEF6
FAD2
0433
0531
FDAA
FD58
FF49
FEC2
021E
FCDC
FDD7
01EA
0012
FD6D
025E
037E
FC32
FF61
FF73
02BE
FBDF
01AF
021D
FB2A
021B
FEC5
0173
0326
FFDD
0364
FC8A
FF3F
0463
FAB2
0351
FFA7
0078
01BE
FF97
FE60
FE1E
FF44
0270
0015
FF1B
0370
019C
03B8
0220
0266
FCEA
00EF
FFF9
03A8
00D4
FB87
053B
05EA
031E
0120
FD7C
02D8
FF90
0082
FAF0
03A0
0082
FE69
FED2
00B8
FF7E
0006
055D
0118
FC63
FC4A
FCBC
0562
02F6
017F
0010
0119
0688
FF22
FDDE
0323
029C
018D
FD30
051A
005C
0060
0114
031F
FF30
FA27
00FA
FF84
0168
02DA
FF93
FFCD
0103
FF1E
009A
00E4
02D0
FB94
FFF1
FD16
0097
FD23
FFDE
FCF8
0032
FEA6
FD2A
0228
FFE9
FF3E
00AB
0218
FF21
00F7
0438
FBE3
038A
FF81
0262
00E0
00DA
0132
00BA
FF37
FDEB
005B
0177
FFB8
0247
F98D
006A
FDE6
FA24
FDDF
FD8C
0054
FE9B
F510
FA58
FEFC
FF13
FC6A
0288
FAAF
FC9E
FDBA
FD2A
FC80
0403
0359
000F
FD52
0437
FF0B
0068
020C
FCD8
00E8
02CC
FFEA
FFB6
FF7E
0011
027E
FF2C
0194
FF39
FECB
FD60
FC57
013C
0328
FF93
FD01
FE2D
FBDA
055F
FDE6
FFEC
0017
FF05
0741
01B8
FDB8
FDE6
0214
05B0
0049
FE19
0264
04BE
FE28
FCF0
FF0E
FEE0
FB39
FF9A
FE4F
0183
00C8
00A6
FC0F
FFBE
FAE9
023C
0150
02BA
FAB4
0232
FEA0
003E
FCF8
05CB
013C
0130
01CF
025E
0244
0106
005D
FEB3
0202
0332
008D
066A
0580
FF71
FF02
01CD
FF12
FAF2
FEE9
0062
FF7E
0190
FE64
0590
01B5
FDA0
FFF4
01EA
01EC
FF9F
0150
03F0
0132
00F6
00D5
0062
FF50
FCF8
0165
0445
FF94
FBE8
FF2B
02B8
012B
01ED
F92C
005D
04B5
0296
FD7C
FD0A
0047
FE0C
078B
029C
02A2
FEEA
FEB4
FE51
FCA2
017A
FF1A
04A2
026B
022A
FEAF
FFE9
FDAB
009C
029A
FF22
0531
0160
009B
FFD0
FE79
FF41
018A
02DC
FE4F
0034
011E
004F
FADA
0476
018E
FF5C
FE80
FE93
FCCA
FE4C
01E7
FD23
FFAF
FEC8
FEA8
FFA9