02B4
0100
FF62
FFEF
FC54
FED6
FF7F
0200
FDE1
FF1D
0380
05D7
FE91
FFA0
050D
FE37
01E0
044E
0019
0170
FCCB
0118
FDFC
00A9
01B0
04B9
0377
FE41
021D
FDDE
04EF
014C
007A
FCC6
FED0
FEE8
FBC3
FF0A
05C9
FEDB
FDD6
031C
059E
029C
FFCC
FB39
0554
0023
FDA0
FEC9
FC12
00DB
0078
FF59
FD28
02FC
02D0
0336
FE1A
FE73
02F0
03C1
002E
FE7E
FBF9
FEDC
FD74
FF15
019A
000C
0044
0044
02E2
FE2A
0167
057B
FF6A
FE3C
0291
0246
0001
FF6A
0299
FDF6
0316
FFC2
02DA
001E
FED7
FEFE
FF9C
F716
FBFB
0182
014E
013D
FC3E
FF6E
FCA3
009C
00C1
0104
FE2C
012D
00FD
0091
FB7C
003F
FE82
00B9
04C7
FF0C
F85D
F8D5
0431
FEF4
FC02
FEB1
FBEF
F990
FE33
01BE
04E7
FFD5
FE81
01D6
FE26
FEF9
01B1
0193
0340
04D7
FDD5
FFBC
008F
05AC
01D1
0043
FEB3
0232
FF91
FFAB
0066
0281
0120
FC9C
0019
020A
FC82
0036
FA58
03F2
FAE1
01DC
01D6
FD4C
011E
FE42
033C
0060
02CC
FBBA
FE62
0294
F94D
0454
0495
0084
00DD
FDA3
FE20
FED7
0140
027A
0069
0240
0008
05A1
FC9B
01E2
08EC
008B
FF0A
0104
FF57
0218
0083
02C5
FA26
FEB0
040D
02DC
FD00
0073
FC77
0189
0199
034D
FE28
FB85
FE10
FAB7
019A
0170
F9F8
FFBC
FEBE
FA88
019A
0180
00FE
FF34
003E
FC9C
05C1
025F
FF93
FDCA
FFF4
02C0
0007
0174
0022
FC7D
0049
01FC
0008
025C
0027
0022
FF54
036E
02BE
04B8
00ED
059F
023E
FF78
005D
046A
FD6C
FFA3
FCE8
FDD8
FD71
03E2
FBCD
0278
0516
0134
FBDF
FD9A
FE82
FF35
FBF5
00E4
013A
0274
014A
0005
08C0
018A
00D8
00B9
01E2
FC84
0430
0453
01B0
FB44
FC34
FE43
FAAB
FFE9
FE62
FC7A
FF60
FF8F
02D4
00F9
0334
0340
FB1B
FCBF
05CA
FE6C
FE16
FE5F
FD18
FF7B
01B8
FFDF
024A
041F
FE0F
0488
02EA
FB20
FDB2
FE57
FEA1
FE98
FD5E
044B
FDA9
000C
038C
01DF
009E
FF30
FDDB
02A6
FDCA
01DA
001A
011D
00B4
FF33
FEC3
FC3A
FFA8
0178
FD2E
0483
FF86
FBF4
0225
0071
FAF5
FEA5
0068
FE74
FE72
FF61
FE3C
FD87
FC86
FEBA
0140
0383
01C2
FFEA
00CB
00BA
01CA
00F7
FE14
028D
01AC
FD48
00AA
003D
028E
FF4B
FFB1
00C7
FD28
027E
FF0D
046D
012D
FEA6
F8E5
0076
0015
007F
FEB8
FF31
FE1A
FA62
FAE2
001D
FF93
01CB
0170
FEF2
0003
FF3B
FF49
FD10
FF72
0225
FFFA
04C5
05E6
FFC5
FE19
021D
FBEB
01BF
FF14
00B0
01E9
FD82
FF9D
0212
FE85
FDBE
016B
02F0
FBC7
0116
FE54
F9C9
0461
00BF
030F
0314
01BA
04F5
FDE8
0237
026A
0172
FEE5
FF5C
0172
FCDC
FAEC
01E1
FED1
FC59
FCAA
FE4A
FD76
03BC
FC05
FE09
0136
0208
FE88
FE12
0391
0157
0222
0068
0500
FCA5
018B
03CC
FCFC
02E4
FE3A
00E2
FB6E
058C
03C4
009D
0033
01FB
FF72
018A
FD4E
01A4
037E
FEEA
FCF3
03DA
017C
0152
FEAC
FD16
FFBF
02C8
FCFD
0466
FD4A
FF63
02B7
02F2
0424
FF80
0136
00B8
018A
014E
0233
013E
FD60
0035
006D
FF76
01DE
01E4
FEC6
012C
FD2B
01E0
FF3E
0694
0624
0194
0218
FDBB
FFFC
0037
F9F9
0014
0440
F92F
FFF2
FDEC
006F
02AD
FCE0
00B2
05DC
FE56
FF05
003D
0154
FD94
01BA
01D0
03B2
04B5
09B6
FC8C
FDA0
FCAF
FE09
00C0
0220
FBF4
00DA
0300
FD1D
000F
FF6F
0010
F94E
FD76
0325
02E2
FDD6
01ED
0140
FD94
FE0E
FFB4
01AC
FFE3
FE98
FF0D
FB3E
FBAE
038C
FE64
FF40
FC58
018B
0029
02CD
FDF0
0182
0124
0660
0241
02B8
FD0B
FD52
FFBE
040F
FE74
03CC
011C
FB2D
014A
0192
FF77
FE92
FFED
FEC0
FCC8
FC9C
006F