071E
F590
EF74
FF01
F526
0724
E788
FC51
0B6A
FBB2
FD1C
04BD
FC78
EC78
0029
F582
FFF6
08C2
F9D2
FED8
F1D2
FCA1
06C3
0980
0158
075D
FDC7
037E
12D0
02A8
EF5C
FDEE
FF4C
F6AC
0BCC
FB7A
F73C
02DE
FD9C
F58E
F1FC
011B
0120
FF6F
EF44
FFC7
03E8
FEFB
0CDE
03D2
FF1C
FFCA
FEE1
F79A
05F0
020C
0325
F84C
016C
F574
FDA6
FBAA
FCF6
0455
FB1A
0511
0012
0013
EE8C
F562
F926
017A
0725
FCB8
F882
08FA
1330
02BB
E9BC
EF40
0296
FC8A
F8CB
0163
04EA
F9D8
08E6
FC82
FB4E
F528
FB28
032F
F76C
0356
E930
0250
027C
FAD2
F4AA
F664
0DDE
F53A
FBE1
FDE6
F31E
07AF
02CA
F7D4
FAEF
F9A2
018D
FE4C
0724
FC6C
05B8
FCDA
0183
FD5E
0A6A
F492
FA76
FB2A
01A3
059B
F7E4
F95F
01E5
040C
0376
F95C
FE26
FDA1
1150
F81A
021E
0099
1300
F26E
FBFA
056B
E604
0369
002F
F15A
FB8C
0964
FBFB
0F50
04D2
030C
FCEB
05E2
FE7C
FA98
04D8
000E
02BE
EF48
0864
0A44
012F
F626
086E
E204
039A
082C
09B2
F76C
0432
FA92
02FA
FB42
0436
075A
FB05
09D0
F5C2
04E2
03D6
FE9E
FA25
0F9C
EB2C
04CD
FE64
0F92
F877
04E3
0ACE
017C
FE9D
F022
0FC0
0CA6
0A78
0DAE
E66C
EB84
025E
0808
0A8E
F972
FB64
FA1D
0179
0330
FFA4
12B8
FA3E
FFC3
F932
02F8
F8B7
0370
060F
01A2
F8E6
F350
FE50
0289
06CE
00DA
12C4
FD0D
F8FD
F96B
08DE
FDF6
F566
0183
FBAA
EFB8
FF55
FE25
0C62
041C
F758
FD52
E684
0F0A
FAEF
F4E8
F6CC
01A4
0137
055D
FDEE
F1A0
FC16
0DCE
FD0A
FF69
F412
FFFD
04F6
F4CA
FBAE
F5D8
F6DA
043F
FCC8
FD0D
FCFE
FCC6
FBA9
FB39
0661
11BC
0403
073C
EA0C
F914
F41E
028E
0A56
04A7
FBEB
0FF6
0F04
FA44
F6EC
F1A6
0C38
F893
FA1C
003D
F6D2
FE9E
F4CC
FA55
F746
F11C
01DE
00EE
05ED
0B2A
F6FC
F532
F6C4
0080
0253
FD80
FFAF
15CC
F82E
FF1F
053A
0364
F150
F8D6
F6AC
0A4E
FABC
072F
0519
F7E0
072D
F554
00B4
EFD8
FFE6
EFF4
F742
0067
F82E
F058
0A1E
0936
0056
0866
103C
029A
078E
0C3C
FDE2
033A
0549
F99A
FD14
06AC
F416
04BC
F528
F076
FFEB
FA9E
14A8
F7DA
F3AC
FEE1
FFF0
020A
FE68
FF13
FBE1
0673
FBEF
0B4A
0191
F82B
F734
F794
EFD4
05D1
EAB8
FF92
FB39
04A3
FC50
058D
080C
06B5
0D9E
033F
06D6
FF6D
02E9
FC60
EE5C
FB49
0328
F38C
F726
FE1F
06D1
FDA2
F922
02C5
FC26
0BF4
04DD
FE3C
1688
F53A
0680
FC1C
F726
0792
FA77
FB1E
FDBA
04DA
0D0C
F2C4
0216
1068
08D0
FAAE
0119
F95F
0870
F568
0D80
F248
FD27
06D9
080E
F544
FFE0
0054
F574
088A
FFAF
0062
F444
F15E
0280
F3DC
0085
F33C
06E8
0A8A
DF50
0900
F630
F915
045F
F905
FFE2
10A0
0DF0
0DB2
0BB0
FE56
FB7C
FC86
E4F0
EC6C
E978
0353
0F22
FAA7
F434
14D8
F81B
068E
EBA8
06A4
017A
0882
0800
FBEC
032F
F030
FD29
0068
FBA0
00C7
F492
F120
F841
FD62
0CA4
F9A6
05DF
04A0
FA5C
F956
FD29
022A
0051
05F2
0916
F8A6
FCDC
F860
FA10
0C00
0412
041A
0830
01DD
0236
FCA7
0C6A
036A
0222
F708
09CE
0DA2
0800
0ACA
F590
0D5C
1460
FD4C
FEF2
FA01
07AB
06D9
1248
0EC6
E950
0D4E
026E
FF08
05B2
0B3C
0056
EEA0
06ED
FE66
F901
F995
FA15
0B00
0A26
FDF8
14A8
082E
F6BA
0624
FE88
0B0A
0553
F30A
08F0
058B
F89B
F0A0
F35A
0860
EAE8
05DD
0498
F41E
F8AE
FA4B
01C5
1230
120C
FAC5
10A4
1450
FD02
FD61
F6AA
03AF
0521
062B
F976
F094
F9BC
06E7
027A
121C
F33C
FB93
EF90
0BF0
066B
FEDC
F22C
FC3C
00D4
078C
FC49
FBA8
0296
F11C
FF3C
0FEA
FC41
F811
FFA7
FF1E
0257
F16C
F396
034A
F9FE
058D
FFDE
FE5A
FA33
FC6E
012D
F94B
FAE4
F40C