FFE6
0061
0001
FFD0
FEF0
FFA0
0000
FFE9
FFDC
FFF7
001E
0000
0055
FFF0
000B
0007
FFFB
FFFC
FF72
FFE6
0000
FFB7
FFE7
FFFC
FFB0
004E
0068
FFE9
0052
FFBF
000E
0023
FFBF
FFA0
0033
FF97
FFFB
0019
0000
001A
FFE1
FFEE
0000
0000
FFFA
0014
FFA5
001B
0000
FFD1
FFD1
FFE5
0055
FFFC
0000
FF39
FF89
004B
0000
FFA3
0000
FF31
FEF2
FFFA
007F
0015
FFB3
FFA1
FFD9
FFF9
FFFE
FFE7
FFFE
FEEF
0000
FFF6
0045
FFF3
0000
004A
FFDC
00CE
0030
FFAB
FF4E
FFFB
FFC5
FFAE
FF7C
0019
0002
FFC4
FF6F
FFF1
0083
FFB4
0059
0000
0004
0000