F77E
007B
01FC
FFE2
FE8E
0394
FE2E
FEBD
0216
01E2
FFCA
FF58
001A
00F1
FF70
0158
00EE
010B
0131
00D3
00F6
FFEF
FFB3
00A2
FF01
007C
FEE6
0272
00B8
FDE4
FE3C
F9FB
01E4
FFD8
0059
FEB3
FE88
FEF4
FF8C
001F
FBF3
FF0C
FDE8
FECC
021A
FD48
03C2
FD59
FF2D
FD78
03F6
0074
FBFB
FEA6
FDE6
FF56
FF70
F9F6
FF44
0074
FE84
0104
01C1
01C5
0473
FE0A
FC62
FD92
0053
0374
FE08
024E
FE07
FEC8
004D
0004
FE7A
FF0C
00AA
FEFA
F91E
00EA
FF87
01D7
003E
FE62
FEEA
FC6E
023C
00B9
017C
FF2C
FEAB
FF05
022A
FE93
00C8
0140
006F
FD2A
FF5F
02AA
FDD2
0131
030A
07DD
FF58
0252
0242
0219
03BA
FF75
FEDC
FDA8
019E
FF24
019D
FBB9
00DA
FE97
FFC8
FE50
0312
02EB
FCF2
0012
FFD3
FF05
FE63
FF03
04A6
FD84
00C0
0171
0082
001E
FECA
037C
02E0
FC37
FEAB
0183
0028
FF8A
FDE6
FEF6
FF5D
FEA6
FDAC
010B
FF2B
0260
0210
FD1D
FE88
FF85
FE76
0141
FB70
0112
01DE
0092
FDDC
0268
FD58
0349
02EB
FEF8
010E
FF1A
007B
FA20
FE35
FBBC
FEA1
0437
0224
FCCE
018C
004F
028B
0130
FF45
FE50
FEA4
0071
FD28
FE3F
01AB
FF00
037E
FD9D
FD73
0023
FF00
FE94
027E
0140
FDEA
00D5
0127
FF2F
FED4
FC3E
04E6
FE37
FD97
0338
FE32
FF95
FF04
FDAC
038A
0144
015E
FECA
FDE3
02FC
FF0A
FE4A
0346
FEAF
0091
03E8
FDB0
0057
FDB2
03F0
FE2A
00A2
FE88
FCC2
FDAA
0304
03BA
FE3E
00A6
FFAB
02DB
004F
FF72
FFFB
FEC4
FA19
FD38
FD70
010B
0169
FE55
008A
FFF3
FE11
FEF1
FCFE
02AE
0232
01B8
FC1B
002A
0174
FFEF
FC60
FE50
04C1
0060
007C
FF16
013A
FE66
02F9
FEEC
FEA6
01D6
0019
FDDE
FD00
0079
01C6
059D
FF33
FF74
FE1E
FF77
FF7D
00D6
FF34
0151
FE1C
00D4
03BC
FE69
01FD
FC22
0290
FFA5
FD05
FED4
FE88
050F
028C
FDD5
FE24
FAC0
FE71
0006
009E
02C5
FED4
FBCB
FD1C
FF7B
01FE
FF45
FB84
FDC2
FD8E
F989
002F
005E
FD8D
00F6
FDD2
FB8D
057E
0123
FDA0
FB81
FEFA
FE02
FEA6
FF68
FE6E
FFE9
FACB
FDD8
03D2
FE24
FF5C
FF38
FD25
00A2
FE1B
FDEA
FB81
FFFE
FD00
000D
FF74
FC28
FF3C
02AC
FDAA
FF3B
FE66
03CC
FD63
0128
010A
FE44
02A2
008C
FE02
FC16
0403
00A1
0042
0084
FDB2
02DF
FF80
00F4
FF5C
04EA
FE74
0209
0152
FF38
0226
FD68
01C4
0219
0334
02A4
01EE
FE10
0258
FC2C
0222
FD6C
02B2
FE42
FDA6
FE8A
FF68
009E
FF9B
FF80
FF79
0450
FF1A
FE8E
FFEB
FF1E
FF88
012F
FF9E
02B0
000B
FE4A
FF25
FCF8
04D2
0034
0137
FE16
FEE8
FF96
FFAF
0348
00F9
FED4
005C
FF96
FF58
007B
FDB0
02D0
0098
0174
FE27
FB62
010F
FFB7
FF46
027A
FCDE
FF51
0010
000E
FEDC
02C6
FF96
FCAF
0115
01AC
FEBF
0012
00B4
FF03
03C4
02CC
0159
FD50
FE36
FD94
0242
FD82
01F0
FF01
FE87
FCCC
FFAF
0054
FA4A
FC1F
0013
0007
FE91
010C
FCA8
00B8
FEE0
FDF6
02C9
FCF8
FDE0
003F
01CE
031B
FE1B
057D
00A3
0432
FEAE
FE2F
FCB6
023A
0002
FF63
038E
02A6
00B6
02EE
0254
0128
01C5
FEDA
0346
0398
00F0
03A8
02AC
FF37
FD02
FB42
013A
0326
0063
FFFB
0479
032F
013F
FBD2
FFAC
FEE2
0001
038A
FE1D
0031
FD5C
0368
FD56
FA34
FFFE
FF74
00C8
011E
00BC
FBB2
0388
0106
FBBE
FE93
02E6
FCEB
0338
008B
006C
01FE
037A
0065
FE9A
FFAD
FFD4
FF4B
00FD
FD2A
F895
0018
0094
FFE8
01F4
005C
FFBE
FB7D
FD56
FF8E
0210
FE1A
FFE6
FEAA
FF32
FDD0
005F
FDFC
020C
FD3A
FB8C
0144
FFBD
FF76
0100
0232
FEEC
FEAC
FFEE
FC32
0081
FC8C
FF3E
FFA2
FF0D
FD2C
FA98
FE4B
00FF
FF4A
0240
FFB4
FEB8
0326
FF44
000C
06B2
FCEA
0281
FDAC
0174
FDF6
02CF
FCF4
00D1
FFF6
037A
043A
003C
FF76
00C1
FCDA
045B
00DE
FF7B
0314
FEB6
FE54
0298
FD32
0080
00E8
0382
FEF8
0032
0565
0258
FD6B
02DE
FF84
FE84
03BE
FE2D
03B8
FC56
0328
FFB9
006E
0288
FF73
0295
04C6
FEC0
FE54
FF33
FF38
0470
FB38
FD50
02AE
FD8C
FE20
FE8E
FFE1
00DB
FFC9
0259
FF85
FA80
0132
FF78
FF11
006E
01A5
FF63
FD56
FF79
FF95
025D
FDDC
0128
001D
FF76
01B0
0548
FB12
00EE
FABF
FFF7
01B6
02B8
015E
FF79
002A
0201
FF1E
FFD0
FEC9
FFF0
FE9C
FADE
FE09
00C0
04B3
007E
FE62
FEAA
0364
0134
00BE
FF72
FF6D
FC60
FC91
FF37
FE54
FD0C
0008
FEE4
002D
010C
FBED
02E3
FF78
0277
FD76
FF18
0287
FFBB
FFFF
0101
FE48
00CA
00E6
00E2
FE2A
029D
FCA5
018F
FE58
00BB
FDBC
FD67
FE47
02DA
01F0
00D4
FDE6
043A
FE1C
007A
FBF9
FEA2
00C0
FFF5
FD66
026D
FE59
0167
FC05
FF89
04E0
FF48
001B
00DB
FC32
FE6E
FDF6
0116
FCDE
FF7E
FDF8
FDE6
FD42
006D
FE1D
02E2
FEF6
FEE2
0061
FFE1
FFCA
0243
FFF3
02A6
FC8C
014A
01DE
0146
00CB
003E
026F
FFAA
FCA5
FBD4
00D4
FEA3
0192
FCBA
FC54
FFCD
FD79
0042
0303
021B
007D
FDE0
FF8D
0298
FC2C
FD04
FE87
FF60
0022
FFA6
020A
0138
0441
0087
FD43
FEBA
FF8E
FEC6
FFEC
0260
FFF5
FEBC
FF21
0025
FEF6
FDB9
0040
FDB0
00A5
0190
FD55
FE43
0104
FD16
0229
FF6A
FDBA
0013
FD48
FF4A
FDC9
FF99
FF96
FFC4
FDA1
0140
015A
FCFA
FDE0
FD80
FE85
0152
0398
FF96
FC6A
FFE4
FEBE
00E8
034C
002D
FFE4
FF11
FFA4
FD14
FF1C
0046
01E8
FEAE
01ED
FD4E
0030
001C
00D3
FEFE
FB9F
FC98
FFD4
0160
FD39
FF15
FF72
FC9A
03C4
044A
019E
FF93
0280
018A
FDDF
003F
02AD
FD40
0224
03B4
00BD
FCF9
0136
FEA8
0146
FE3E
FF77
FE15
FBE2
01D5
0219
FB3E
FD66
034C
008F
FD9E
FCF6
FCFA
0049
04F9
0190
FDEA
FCDF
FDFE
FE1A
0125
0196
FF95
00BC
00A8
013C
FFC2
FF2C
FF20
FF9A
FED5
FB5F
FF32
FEBF
FC34
023E
FFAE
FE3B
00EA
FBA0
FEA5
FDCE
FF4D
FFFF
00F2
FF4E
0027
0620
0094
FDB7
00DC
0504
0080
02E2
0170
0282
FFB2
01EC
014B
0116
0368
00D8
009E
0041
0035
FCFE
FEF2
FD52
06C4
FF8D
02D4
02CC
0146
FEC0
00FC
0146
FFD3
01D8
0100
0114
FD28
00D0
010E
FD2E
0288
00EC
046A
0507
FDB8
FE0A
026C
FD8A
FFA1
FC3A
0083
FC8A
FF34
00AD
FEB2
00C7
00AA
FF4C
0140
FE14
FF34
00A9
FFDD
00F5
FB4B
FDAC
FB58
FE86
FE5C
00A8
018C
015B
0202
005F
FFC0
FE3E
01DB
FCD2
00F6
FE98
01B6
0363
FDE9
FEC5
FD3C
013F
FD24
019B
FBB8
FF9B
FED5
017D
027A
FC28
FE94
FE91
FBC8
0165
FF6C
FC5A
032E
FF74
FE5D
FCA9
FC8F
FF12
FEE8
FD0D
FD7C
FC9A
0027
FE6C
009E
002D
00DF
FFB0
FF17
01DC
FFE5
007B
FADB
FFBB
01D9
01F1
01B8
027E
0013
00B8
0422
FF94
009A
FBCE
01D2
0373
00CA
FF7E
FD1A
FFED
01C5
0069
FFD4
03DA
0491
039A
FDF8
FD76
FC1A
01D2
00EE
FF0F
FEF5
0166
002E
FEC0
FDEA
FDA8
0139
FC63
03DC
0037
015B
01B2
01C4
009E
FED9
006F
FE4C
0342
03EE
0136
003C
FCB8
03DD
FEE0
FD1A
00C0
FF28
FFB9
FDAC
02A8
FBE1
0172
FDA7
027E
0292
FDA6
062B
01D1
003C
00FE
010F
FDFC
FFF6
FB12
FD5D
FEDE
012E
0183
FEF8
FAED
0057
0480
FF84
FF90
FFD4
FBC8
0398
0250
000B
FFE2
FD26
030D
FD6A
0029
04B1
008C
FFC0
02E3
00C6
FF78
03F3
FFC6
FF00
0151
0028
00B2
009A
FD67
FD29
00D7
FEBB
FF62
FC43
FF2F
012B
FF5F
FEA8
026A
FED4
0182
FD8F
FDF1
FF74
01CA
01A0
0218
0089
FD86
FDB2
FF6F
FE62
01F1
FC74
01F0
FECF
00CD
FE93
FD72
0174
01EF
FB7F
002C
FF5C
0552
006E
0092
FF9B
FEE2
04A2
0079
FD6E
FFA3
0236
0178
02A6
00FC
FB22
FFE4
0080
FCC8
FFB9
0146
0354
00F7
FF73
01B8
0142
05DF
00B7
FF63
FCEE
FE5E
0079
FFEA
FD44
01C7
FD62
FC00
00B4
FB46
FCDD
01A8
017E
FF54
FD35
0057
FE2F
FFD2
FDA8
00C6
005D
FC95
FCD7
01EC
FF2F
FEC3
03AE
005A
FFF5
FF6B
FDB0
001A
011C
FF25
FE81
02CA
FE04
00FF
FF2B
01B6
FC26
FFA8
0026
FDAA
01B9
FF8E
FE39
01E2
006B
0188
FE85
FF6E
FCFF
00AC
0126
04F4
FF92
0140
FF1E
FDD0
FFA6
0055
010A
FDA7
00ED
FDC9
FD35
011A
FF0B
FD2C
0156
FA17
02BE
0057
FFF0
FDB2
FC68
FE82
FE87
FEE4
FE5D
FCA2
0045
00BD
0107
FD2A
FCDA
037C
FFA8
FD80
FEDE
0096
007F
02E0
FF30
0201
FD00
008C
FAA5
FE0F
FEBC
FE8E
0116
00A7
00AE
01E1
FF35
FE6A
0140
FC84
01FE
011F
00E8
FD60
040D
0226
FE17
0330
FF32
00CB
02D0
0004
FC25
021C
FF73
024A
FFDF
FEA8
FF1C
FD1E
0360
021F
FE54
FF28
FDEC
008A
0284
FEC2
FE27
FEB4
FC50
01F0
FCB1
FDD2
FD24
FDF8
FCC6
FF24
00D1
0123
FF13
FEE2
00B0
01AE
FC9C
0200
020E
FF67
0000
0197
0000
FE8E
FDFC
0135
FC52
02B8
FC69
FED0
FD66
0287
FF15
0003
028A
FD66
0298
00EC
0412
011A
FE7C
0042
FDCB
FD3E
0135
FDCF
0007
03C2
FF13
04F8
FB16
FD02
FFBF
FFCB
00DC
FFA5
FF17
FED4
01DB
FF96
FD5E
FEEC
0256
FF84
FE0C
00B0
FFA8
FF66
FEC2
012F
FEEB
0245
00C3
FBD2
0207
054C
0092
FD0C
0079
FEF4
FE66
012B
FD2B
FDBB
0043
0040
FE3E
FEFA
FDA4
FDC6
FD42
00D4
FDB8
FF16
FB1F
FBA8
FFF9
018C
008C
FE9A
002A
002E
02AB
0318
FB5C
02E2
013F
0062
FD85
0200
FEB2
FF64
028B
0035
FD80
FFAA
FF5F
034A
0167
FD66
FFF6
FFAA
011B
FF59
FEA1
01C4
FD74
03C0
FF85
01E5
0184
013A
FF6A
F8B5
FCC0
FDDF
FC24
0153
FE8B
FECC
FE53
022D
FFCA
FDC2
00E4
FC92
FFCB
01D5
FE68
FEF0
FFF0
FF26
FBEB
03B6
FF42
00D9
FF0D
010E
FF4C
0239
0405
FBEA
FF92
0268
FEE9
00BB
021E
FCEA
FE96
FF11
FEB6
FE52
02BF
FF1E
02DF
02F3
0082
0004
027C
FE29
03CA
0292
FEB6
01BD
FFC4
01FB
00A0
0243
FB3C
FE06
0578
0238
009F
FE31
FE9D
FD9D
0250
00C1
01D3
FE5E
FF90
000E
025B
016E
FE04
0087
0162
FC44
00BE
FF7E
FE9F
FCF7
00AF
012F
FD8C
0160
0127
FE1D
FEDA
00A6
01C8
0594
FC38
02A4
03BD
FC28
FCA5
FF5D
009E
FC2A
0182
000D
FDA6
FB21
00BA
FE4A
FCD4
FC12
04CB
0027
FD37
FE3D
FF48
00F1
03F8
00C8
0188
FF1B
00E4
0007
01FE
FF26
FCD2
FFEB
00CB
FAAE
FCEE
009E
005B
FF3E
FE59
00C6
043D
0035
FFF3
FEA5
FF72
0075
FAB8
00FB
0402
0192
FE0E
FF3D
02D0
FECD
FD7A
008C
0064
FDA6
0062
02AA
0364
0157
FFBA
FEEA
FFAC
00EE
01C2
016B
0007
0286
FCE6
FCF5
FF4A
002C
FDF6
FED2
FE29
FC50
00FE
02C5
0079
FDB2
FC0C
0178
FE43
0019
FDC4
FD32
0142
0336
02A0
0274
017E
FED0
FE5F
FFC2
00CE
FD08
01F2
016C
0186
01EF
FC49
FEA8
0208
01C5
0102
00E7
00D5
0128
FFB9
0095
FF31
FF7C
FFBC
FF0B
FFED
FEA7
FEF4
FDE4
01EF
03F5
02A5
FEA2
FF33
FD3E
02B0
FD1A
FBBF
0117
FD6D
0495
FE7E
03E8
0368
032F
01B6
FEA3
01E0
00EE
FD72
FDF7
FD32
FA71
0119
FFB0
FB34
FD88
FA67
0202
FEDC
FFAF
01E4
FF3D
FFBE
FFB5
0479
042C
01A3
0204
FD86
FDEC
0127
FF3C
FA5B
FFA9
001C
FFD6
FB18
00E0
FC84
01E3
03FD
00C5
FD68
FF6D
0048
02E0
FA15
FF24
FF49
00D7
FD3A
FF5C
00EE
00E1
FF46
FCCA
FF21
0112
FF07
FF2E
FFCB
00BE
FD02
FD11
FE2D
FE30
FD3C
FF16
FDA2
0283
FFB4
FD88
FF17
FEBD
FB9F
0039
FEDE
FB00
FFA6
FC11
0404
0210
FDBA
FE84
0450
00BB
FD99
FFEB
013A
01DA
0370
FC1B
FD82
018D
FF1E
FDEE
0347
FDAE
01D0
FE26
FE76
02EE
05F9
01AF
0240
0226
0286
02AC
0006
FCEC
FDE5
036B
FD36
FEE3
FED5
FD9C
0140
FECA
03D0
02A0
FC2D
05E3
00E0
02C8
FE8E
00BC
01AC
FF80
FFEA
0048
017C
0122
0599
011C
033C
FF54
011C
FF2A
FECD
FE86
01AA
FDE8
FD26
FDAE
004E
FC0A
032C
FD9A
FE23
0179
02C2
017B
FED7
009B
019E
00DC
FD11
0678
0178
FE1A
FEA8
FE76
FE78
0169
FCE2
0088
04D9
0380
FD18
FECC
FDBC
013B
FCDA
FEDD
FD05
0066
0310
FDC4
FEA8
040C
019F
0133
FE74
0428
FE84
FFB2
00D4
0294
0055
02EE
0080
FFC5
FDF2
FD07
0174
FFBE
034A
FD9C
00D9
0198
FE8A
FEC8
FD99
0013
FFC5
FEB7
00A3
FE7A
00A2
FC5B
FC88
0192
FF49
FC50
FA95
FFF0
0040
01D9
01EA
FFBB
FBE0
0134
FFF6
01C2
0234
FDF0
FD54
FC16
02A0
FDE6
FD0C
FD0C
FD98
02CE
01E1
028C
0298
00D6
0076
FE6C
FA0D
0174
0039
FEE4
0165
00A8
00F0
FFF6
FDE7
FF4A
FFB9
FD88
FF5B
043F
01E6
00EE
FF83
FF8A
FE7A
FF8D
FF65
0062
FD1E
01C6
FEB5
FD1A
FDDE
FFA2
0191
0093
001B
0043
FF30
FF21
FC87
FD78
0088
FEED
013F
FEFF
FEA6
00C6
0007
033E
0009
FFCD
FD6C
0088
FD25
02FC
FDD6
FE65
FDF0
0066
FF49
FDA4
0395
FD3B
02D2
026A
01F0
0094
FF16
FEBB
FE4A
FF40
0142
FEE7
0129
FCDE
00D8
FF75
FFCD
FEA3
F944
FEFC
FE68
FFF5
0100
0419
FFE9
FB5B
FF3E
FD1B
FD7D
FEAD
FF27
FED2
FDF7
FE6E
FDE6
025C
00F6
0141
FECC
00D6
FE08
022D
FC2A
FFF6
0033
FDC4
01CC
FC93
00E7
0066
FEE4
FE34
FCE8
FEE4
FEA6
FE6E
0314
018F
038C
0238
0284
FE14
0031
01D8
FF4C
FF8D
FBD0
00C4
FE4E
FF56
FF1B
FFAC
FB85
02CF
02ED
0260
04E1
FF3E
02C4
FDF6
FEB9
FDDC
FF56
FFAE
FDD4
0079
01CE
01FC
FFA0
011F
031B
00EE
011C
FFBE
FC72
FD82
FFEE
0073
FF85
FEF4
FEBE
0454
FE45
FB37
FFDA
01C6
010A
0456
FFE9
FECD
FEEF
00F0
0234
FF6E
0179
FF5E
FAEC
FF58
02A3
02C6
017E
0014
FD8B
FF88
FCB7
FE26
FF78
0010
015E
FF1D
FECE
FFD9
FDEA
002D
FE09
02D5
FF8E
FEB3
FF89
FE71
0161
003B
0050
FFED
0284
027C
FEA2
00BE
FDA8
00A9
0252
FF60
FE68
03E6
00D9
FF30
FF59
007F
FD44
02CE
FFF2
FFA9
FE6E
01A6
0142
FF72
0231
FF56
FFB0
000A
FE5B
FF6A
FBEB
02D0
00CB
0028
0336
FE30
FDBC
007A
FF6D
FF9C
0400
0015
FE1D
FE0A
002E
FD24
FE32
FEAD
0246
FD48
0137
052E
FF11
019F
FD7F
FE26
00DD
FDC2
FC66
017C
FFEF
0242
013A
00AE
FEC8
FDAD
025E
FF8F
0180
FEA2
01C8
FCDA
01FE
FD67
023C
FD6A
020B
01B3
FF36
FE39
0210
FCA0
0185
01A8
003B
04D6
FF71
015A
FCDC
FE17
00CF
005D
018A
02CC
0190
0174
025F
0013
0112
023E
00BB
03D6
0088
0128
FF25
FDE9
004E
FEC8
FF0D
FD44
FC99
021C
01ED
FC12
0337
FE34
FEA1
006D
FE88
001B
FEDC
0518
FD3C
FCBC
0262
FC36
00DF
FC91
FC69
00A2
FAE3
FC7C
00B8
FC1F
00A1
FB72
FC75
FD90
008A
0002
FCD0
FB2B
02FE
FE8C
FE54
06F4
FD24
0380
006D
FA44
FD22
FE6E
FA58
0250
FCBA
FFFA
FEE2
FBD4
03E4
FFDF
FC9C
FCD2
035A
021B
0124
00BE
0213
0062
FFA0
01B1
003C
FE51
FDE2
FF27
042B
002B
FD63
FF26
0020
FECC
FB32
F99F
FCFC
FB83
FFCC
FE4F
F9E2
FEA1
FBC3
FF6B
FD78
0123
FD2C
0250
FFDE
FF2F
FF4A
0091
FF67
F9CD
FE8B
028E
FF29
0258
0213
0454
0081
FF0E
00C4
014B
FDE9
0174
FF94
FED0
FE91
038C
FEDF
FE22
FF13
FED9
FCAC
FEB9
0260
FD5C
FF75
FFDB
00AC
0120
FC44
FFFA
FFF8
FFAA
002A
FE24
027E
00C9
FB42
00D8
FE46
FFEF
FEF8
0316
0218
021F
0349
FF19
FE97
FF96
0291
FEF0
FF77
02F7
FCC8
02C2
FFEB
014B
FCC2
FEBE
FEB3
01DF
009A
FF3C
F9DE
FDB9
0294
023C
03BE
0189
FE18
FFD6
FD85
02B0
FF9B
FECC
00C0
FF95
0112
0173
009B
FDF9
01A1
026E
FE97
FE52
FF09
004F
00D8
FFB6
00E4
0134
FC54
FF34
0077
FF8B
FDF2
FDE2
01DC
FEF9
00E3
FF35
FDEE
0144
FE72
01B4
007E
00B5
FCB8
FE50
FC2C
0182
0052
FFB8
FD2B
00D6
FE92
04E4
F9E8
FDED
FCAC
FCAC
FFB8
FF0A
022D
0295
00A8
0131
0202
FFD9
FF7E
FE4F
01F8
FD8E
FF64
0120
00D4
00A4
0191
02A2
0232
FFD2
020C
FEDF
0333
FF2E
FC04
04F2
05B4
0055
FE43
0384
FD5E
FEF9
004C
FE9F
00B0
FE03
FC94
FE70
FFE8
FD5E
0264
000D
FE9D
FFCD
FC4A
0199
FD70
FF4E
0138
005D
FFD6
0383
FEC4
0362
FCA7
FCBC
001A
03CE
FFEF
0073
FFC6
0364
FFE7
0115
00FB
FF70
00F5
FF32
0182
FCB6
0306
0378
002E
002B
026C
0104
FD8A
FD22
FF2D
FFE6
FF4E
FFE8
FFD5
03BE
FC8A
02BA
0027
FE38
0118
0362
FF40
FA93
FF29
029A
FFDC
FC71
FDDC
0039
0191
FEDE
FDC2
FC18
021A
01EA
FD36
FCB8
00B6
02F0
FB17
F9ED
FF10
FE1A
FEA3
034F
FC83
01D4
039F
FF83
0447
FC64
FDA5
FF76
00A2
FEE7
FE54
FC9A
FEBE
FE64
028C
0170
FEDB
FF40
0675
FEAE
FD04
0086
0193
FE7B
FE7A
0166
FC4C
008E
FF9C
006F
00ED
0228
FEAB
FEFB
0345
FE46
015C
0158
FB6C
03BA
FD38
FE6B
FF76
FF9A
02E4
0200
FF2B
FF97
0031
FE90
00E8
0047
FF36
FF94
03A1
FD5E
FD56
FE8C
0061
FED2
FE07
FC9F
FEC0
FE1C
FEB0
FF05
FF12
FD94
FF3B
FC08
0513
FF1E
0018
02CA
FE1A
00AA
FDE6
FFE6
00C4
003D
FEB7
FE5D
0349
048E
0058
010C
0063
FE20
FE29
0064
020A
02B7
FE2E
FD04
02CC
0415
FF57
FE49
04FA
FFAA
FEDB
0336
FF0E
FFED
FF26
FC16
FEAE
027F
FE0C
FCC0
FF21
FF46
FCD4
FE62
FE50
FED0
FD7C
FC54
0091
FC5B
FF32
01A2
FF8F
00DE
FFEF
FDA4
0083
FCF2
016B
0189
FCE3
FBBC
029F
02A0
FE59
FD72
FEE5
01D6
FE98
01D8
FFA3
FEA8
FFF8
FAB7
012E
063A
FFB1
FF25
FCBA
FCFA
0001
FE63
FE98
FDBD
02C7
FDAA
013D
00F2
00EB
0508
01A6
FDA2
00AE
FF62
041A
00AF
FFF3
FDEF
FC48
FCCE
0330
0005
0250
02C6
0070
0192
FDD0
FD3E
0286
007E
007D
FF2E
003B
FDC2
FD05
FFB1
FA30
00BC
FDA5
FF42
FB3C
002E
FCDC
0129
04ED
FE9E
039E
FDDA
02DC
FDEE
01A1
02C1
FFC2
FDC6
0190
FFFD
018E
0035
0178
0041
FD82
0029
005E
001B
FEF2
FE14
076E
012F
0427
FB4D
FDFE
0062
01DA
FD5D
0182
00C2
00BE
FAA8
FD48
FF0F
021C
00BD
FF04
FEE2
01FC
01AE
FEC5
F9D7
FE6E
FC34
FDBF
0140
0007
FE27
FEFC
FD92
003E
0094
FE6B
FE32
018A
020E
FE87
01DE
FFC9
01EE
FF56
FD14
03A2
0186
0194
00B6
02E8
0037
00B4
FFBB
0256
034F
04F8
0338
FCFC
007A
FE31
FE48
FE80
FC95
0314
FF9E
FFA0
0220
FF78
FCA5
0369
F8B0
FE74
0268
FB77
FFC1
FE9D
FFE3
0090
FDA0
FA09
004E
F974
FE85
FAA4
0023
FDD2
FE03
FFDF
FF84
009F
FFAD
FDD8
FDF2
002C
FE6D
FD6E
00F3
FF42
FD2F
0302
0240
FCE4
0087
FEBA
0516
FF2F
FFB2
FB98
0138
FFDE
01EC
FF36
01F0
FEB8
00AA
FECE
0047
01E0
FEF2
0051
FF11
FF9E
FF2D
FFB6
0004
0127
006E
0164
FF74
017D
003D
02FA
FCB0
0219
FD69
FFF3
FFC4
FF09
005D
0538
015B
02A0
FF82
FE80
0140
0048
01AF
04D9
0051
042F
0059
FD00
0079
FF8E
FED4
00D4
0361
027C
FED8
01B0
001E
FD5C
F8B9
FE0F
FEA5
019D
FE58
FFAA
035C
FD2B
FFF7
FEA1
00D5
01ED
FEEC
00CB
FF69
FC41
FEB6
0209
FBF8
021C
01C7
FED3
0276
FD18
FC58
FDE2
FF42
FD6C
FDFE
004F
FB73
018B
FC74
FF55
0118
FEB6
FF32
0118
FFFB
017E
FA3C
013F
FDBC
FAEF
FDA9
FBBA
01DF
028B
FFEF
FFAC
01B8
FDB4
FF2C
FFA6
0256
01A1
FE2A
FEC8
FF41
00A6
FD6E
FEED
FE38
0006
0123
030A
FE3A
015F
FC76
FC18
02B5
FFE8
FEF4
FD44
01E0
008C
005F
FFD6
00B0
06DC
0220
FFB0
02B0
015E
FF9B
0016
0098
0045
FEC4
FFD0
FDE2
FD94
0093
FD98
002E
00B9
FE42
0125
022E
FCB0
02B0
01C0
FFAE
FED5
0174
FF60
031B
FE58
FEF6
FD56
FFD7
FB42
FF26
02A4
0162
0100
0428
00A0
0052
01C6
02B4
0006
0037
FFBA
00F9
FEAB
FC8E
01BF
007A
004F
038C
002A
FE18
FE9D
01B5
FF6D
FD92
00D6
008E
FEB1
FEFD
FD10
02BE
00CB
0188
007F
FEEF
FC37
00F6
FD86
FC73
FFA6
FE59
006B
0373
FFAB
010F
FD8C
FA76
00D4
01C7
0264
0162
015D
FF85
FEBB
FDF8
FDDA
FFB1
03CC
FE29
FC5A
0224
01C4
01F4
FBFF
FDFE
02A3
FC8F
FF10
FFA3
FF1C
FFB2
FF2A
01F3
FE32
002E
0337
FB8B
0010
FD60
FF6B
FE19
FF00
FDC1
003E
FF24
006B
FE30
00BF
FF74
FFCD
01F6
010E
FEDA
FF94
029A
0305
FC5B
0147
017C
FD34
0202
FE41
FFFF
FF7E
F9AD
FE87
FF0F
FF59
0100
002F
020A
0104
00D8
0108
0084
0104
FE92
0206
FEB4
01AD
FE81
01D8
FCB9
FFA1
FFF1
01CE
01E3
0140
FDC6
FF83
FFC8
FC38
0126
0005
01B2
FF29
0403
0260
FFF7
028C
01BE
FC64
008D
FE96
FD4C
FDE0
0348
00AB
04B0
FEFB
010A
FE6C
FD38
0081
0382
012F
FED1
FC00
0256
FEB9
0256
014D
01A4
FFC0
004A
0002
FF45
FE4F
FF5D
0016
FE3A
01CE
003F
046E
FC00
FE9A
0140
FFF1
043D
012E
FC7D
FD85
00C1
FF73
FC8C
FE8E
0202
0012
FEC4
FF99
03AE
0422
FE5C
0178
FEFA
0013
FA1E
FD80
FDDE
FFC3
0426
FD9A
04C6
FE20
FE43
02DE
00FA
0018
00CB
010E
FD83
FEB6
FB73
0076
057E
FE39
FDDE
FDBD
000D
FF38
0033
0210
0013
02F2
0038
FF1E
004B
0358
FEA0
FF78
FECA
00D8
0068
00EA
02DE
00BA
FD31
FF91
047A
FD00
02D0
0299
FDFB
03EC
0043
FEF2
FE98
FEEE
01F0
02CA
FF9F
012B
FFC8
FE8E
FFF1
FD7B
01B0
FC1D
FF7D
02CE
FD06
0037
0322
0270
00CB
FE96
004B
00F6
FC3E
0366
0108
FEE7
025E
FE8A
FE75
0031
FFAA
FCBE
FF9A
0336
00B7
FF9E
FFA6
015E
FE4F
0170
FFFF
029A
FFBB
FE76
FEE6
FF2B
FDDC
FFD2
FF1D
0176
0316
FE86
FFF5
00C3
FEB8
04E6
0186
02E3
FC5C
FB95
0078
FAF4
FF53
0032
FD6A
0130
003C
FD30
021C
FD0C
FCD0
FE31
016E
01D7
015E
FFBD
FDE2
022A
0242
FFE9
FF58
0128
FE9E
0088
011D
01AC
0151
FE5A
FCB7
FFEB
019A
002C
00F6
FFFB
FCE1
FD62
FF62
010E
012A
FFB3
00EF
02D6
FEAC
FE5E
FE66
038C
FCED
FF51
FE6E
FCC9
009D
FF18
00BC
FEDC
FC9D
FEEC
FE79
FE9F
00AC
FE9F
FC16
00F4
FBB6
0304
01C7
01C4
FBA4
FE72
024E
04A6
FFC4
FFF4
FDD2
FC70
FE66
FF3E
FC5E
033D
0220
FF1E
FF4E
FEB0
FD8B
FEF4
013C
014B
FD27
FFC1
0006
FF60
FBC8
FF53
FC10
012C
FEF6
01E9
0010
0310
026A
00D4
01B4
FF56
FCCA
FDAD
FBDC
FFD4
025F
00FC
01A6
0179
FD3F
FF4D
01A4
04CA
013F
FE76
0316
FD92
00DE
033B
013E
000B
FC94
FC9C
FC3E
FE0D
FD9E
01A5
043D
FE55
FFD2
00E7
0172
FEA5
0190
FF14
001E
FCDC
00EB
FB39
FE8E
FEE6
0065
0260
0035
0274
0017
0733
02DD
00CE
032E
03D4
0010
03AC
017E
0031
01F0
020A
FCB6
FF5B
FF02
FF0B
0102
FFBF
FFAE
0086
02DC
0225
012C
04D9
012A
015A
0206
F924
010E
03C0
FDAC
FFA1
FE85
FEA2
FE6E
FD82
FF4B
03A0
0249
01EC
0034
0105
FB90
FFC0
FE1E
FBE0
01AD
FFA3
027C
02B6
FE32
FFE8
FFC0
0184
04D8
01DD
FD60
FE7F
0252
0440
FD1A
023C
FE7C
00AA
FE7B
FFA8
FFDF
FD68
017B
FE90
0138
FE37
042E
FF2F
FE47
00FF
FF64
00E4
FD9A
00E1
00B5
0314
03DC
FFB8
03E7
004B
FE4E
027C
007B
0220
01B6
FF76
FED4
0257
0036
FF2B
FC1A
0104
FC8A
00ED
FE46
0044
FF52
009C
0255
FFF5
01A0
0108
02C8
FEAC
FF8A
0020
036E
01B2
FDBD
FFA2
FFCD
0316
FE36
FE8E
FDD8
03F6
FF06
0050
FCAE
FE25
0222
013F
FCF8
FFC6
FD72
01A2
011C
FF87
0089
019E
0822
0495
FA7B
F7DE
FFD0
02AC
0014
001A
FFF9
FEE6
FBCB
FF42
041A
00B9
001C
01A6
FD2E
FBCB
FFA3
FE98
0128
FE95
FB7B
FEC9
FFFB
0237
FC58
011E
01FE
FDBA
060D
FFEA
0050
006E
FEEA
FCCD
014F
FF8B
FED3
0166
012A
FF10
FCE8
0227
FD5C
FD8C
FEBD
0010
0012
010E
FFB2
FF47
FB47
00A8
00B3
00CC
0000
FEC2
FCC0
FC3E
FCDC
FD9B
02F0
FBD1
FC1C
FC7C
02C6
0292
00A0
00CB
FA99
FDF7
FB4D
FF51
FEE8
05F6
0033
00D0
0375
FE26
023D
FF04
FD20
004E
00C5
033C
FCF6
022C
01A7
0141
00E7
FE9C
01C8
FF43
FEBC
FF56
FFAD
FDC5
0184
FBE4
0068
0072
FDC8
FF64
FDB0
00CA
FDCC
00F8
FBA5
01F8
01E6
02B8
001A
057B
FFB2
FF17
FF0E
0096
01D2
01FB
FE74
02A3
FD7E
FE86
FF90
FF4A
FFE5
FF85
00E5
013E
010C
FD2E
02F0
01F5
FD72
01CF
015A
021B
01CF
012D
005B
0090
FFA5
FED1
0052
FFF1
FE68
004A
00E8
FF7D
FFEB
035C
0324
0312
0064
010A
FFA5
03BF
FD30
FF90
FE76
FCA5
0492
FFEE
FF09
0315
0165
000E
023B
FE13
FE4F
01A0
FD9E
001F
0151
FCFA
005C
01AB
0268
FD4C
004C
FB2D
0355
FE9E
FDCC
016A
FEB6
FF5D
000E
FD30
003D
FCD1
058D
FF8F
FD71
FE1C
0558
0082
FFA6
FC43
0406
FE2B
FF67
FED2
FEE4
FD61
0201
FEF6
FFDE
FC18
FF57
01CE
FE48
03AE
0010
FC74
0012
FEDC
FAD6
FEF1
FCBE
0015
FDAE
FF52
FEC9
FDF6
0250
FE9A
FEAF
FD86
02D5
011E
0232
00FA
FEED
016B
FF24
FED2
F7FE
027A
01D6
0176
FC28
026F
012E
FE12
00B8
0210
FC66
FF26
000C
00AB
020F
FBFA
FEAC
FE3A
FD90
FF38
01AA
FD92
0504
052A
0326
0496
02BC
0002
029F
FEFB
FBF5
014E
00BD
FBA8
FDEE
018E
FE41
0192
FF16
FC1E
018E
FF64
006D
FF48
FE28
037C
FF61
01B8
FCFD
0171
FF7A
0133
0054
FC5C
FDA0
00C9
0434
FD7E
02AC
00E6
05B7
0233
FDE2
0239
FE38
0088
01CE
FC25
FF38
FC46
FF7A
FDFE
FE4F
00DF
0064
FF88
007A
FE4C
07BA
FDB7
FE16
010C
0226
F97B
0392
010F
FF26
018D
01C0
0102
FF49
FF9F
00EF
01B3
FD92
0018
0449
00E0
01C0
FDDA
0283
FF4C
0029
0042
FC98
FD76
0066
FE6B
0106
04AF
FF29
FBFF
FEB2
FCD2
0001
00B0
0216
0463
FDEF
FFD7
0017
03F0
05A7
00EC
FFF9
004E
FC7C
0033
FFED
FD35
0214
FDE4
F925
FEA3
0168
FEDB
0242
FF42
0086
0062
FC8D
0231
FC8B
0190
036A
0372
01E8
FA96
021E
0151
FEA2
00EF
FF6B
FE3C
F566
FEF4
0273
FBD5
FFB4
005B
02B4
FFFA
FF0D
0102
FCE4
FF58
0185
0476
0296
FFA3
031C
FD73
0105
FD59
FDD4
00A6
FD62
FEC2
FE77
FD72
FDF8
FFED
FFA9
FFBE
FC26
FE97
FD76
02DE
01A4
06DB
03B8
009F
FEF8
0376
015D
0122
FCEC
00DE
FF4F
0112
F982
FD66
0176
FFCF
FD6C
FE92
FD7E
FC5C
FF47
02FC
0370
0342
FF08
002F
00B0
00DC
0163
FDA6
0198
0083
035E
04C1
FEF0
003E
0203
FE06
017E
0268
FC94
FBCE
FED4
FEC2
058D
FE51
FFA5
FC1C
FFBC
FF03
04F0
0089
01DE
FDEE
FF9E
FDE6
00D8
05DA
FC2A
0506
007C
015F
0023
01CA
FFD0
FFA7
01AE
0050
0202
FBE0
FE19
FB2E
FF56
FD92
FC42
00CD
0014
04A9
007A
0460
FC25
FDFC
0319
FF4E
FFA8
0054
02AE
010C
0526
FE02
009E
FDEC
FFC2
00E7
00D4
FEB4
FE2A
0198
0288
0175
0068
0032
FDB4
00CA
FDF4
0067
033E
0086
008D
02C4
01AB
FFED
FEA4
02D6
FDFE
FECA
01D8
FF66
FE26
FEC1
FE8C
0335
FCB0
FF54
02A6
FEFE
0169
FFFA
0053
0166
00DF
FFFD
FE90
044D
FCDA
FF6B
FDF4
02A6
FD74
006C
054E
FF6E
015C
FE2C
0090
FDF6
FEE4
008B
FD80
046F
002A
005C
024E
FF0A
FB37
01FF
0290
046A
0054
FEA0
FE33
FE86
FFD5
FDF5
0154
00B6
FF56
F9A1
FDBC
00C4
000C
FD21
FDA4
012D
02EA
0282
FFAF
FED6
FECA
FEFA
F9E3
FE1F
FE20
0111
FE62
032F
0181
02AE
02B4
003D
FDCE
0000
02BC
FD1D
FBE5
02D4
FF06
02C6
0122
FF1F
0523
00FE
00C5
FF06
02D2
FECA
FF61
FFEF
FF3F
0199
FC93
FF03
FC94
FC8A
FB91
0379
FD7C
000F
FEC6
01CE
FF3D
FE51
007F
00FA
FB79
FD46
03FE
0308
FF11
FED0
FDC2
00CE
0264
FE4C
FCF2
FF2C
FFC0
0034
FC51
0337
0153
FF90
FFA6
01F8
0038
00A5
0359
FD15
0045
FFE4
01A1
00FE
02DC
01E2
FFC9
FF18
0408
FDE8
00FD
01AC
FF3E
0035
031C
FF7A
0004
FCE2
FCF7
0058
018E
FEBB
01C8
0366
FFBF
FEE3
FED6
FCEE
FB5E
FF6E
FF7A
FDD9
FBE8
FCF8
FF22
FF26
FFD5
FB1D
FE9A
FBA5
FBAB
FCFF
FAD1
025C
FFB4
FDAE
0155
FCA6
04F6
0134
02D3
0192
FDE5
0236
FF58
FD2A
FD46
0000
0241
FC3E
002A
FF87
FD94
FE33
011C
FD60
02BC
FD00
013A
0280
FE74
FF06
FE96
01AB
0036
FE31
FE3B
FF17
FF38
0024
FFD6
FFCC
003A
0296
FCE8
FFD5
0267
01CD
0278
FCCC
04AF
05F9
FAD8
FEF6
FF7E
FD2D
FC2C
0262
02B0
0350
0302
01C0
00DA
FD42
FFAF
FF71
FE6E
FD70
FDE2
0144
020E
FF5B
FFC2
FD5A
01E8
FCAA
FEF5
0227
0405
00D1
F98F
00FC
FFDB
FDCC
FF97
FDAB
FFAE
0218
FFB5
FFA4
00AB
FFD7
FEE8
0092
FF88
FF57
FD6A
FEFD
00F3
0135
FD29
FE05
FCE0
FCCE
001D
003E
0244
FDF0
0410
016D
00F4
01EC
FF97
FFAE
FDC6
0473
00C7
00D0
FFB5
FD5F
FFC7
FC4C
FB33
FDFA
00BD
FCAE
FFA2
022E
039E
FEA3
FF86
FFC4
FDD0
001C
FCEB
032D
FCB2
034A
01D3
00B2
00E1
05B0
0302
0458
04F6
0334
0260
0086
FD15
0174
01D8
FF2C
02A2
FDB3
FFC7
021C
FDF2
0161
FCFF
FE1C
FEEA
FF5B
021F
FF23
FEB8
FE39
FE2A
0236
FE47
FF7C
FD6E
FEF4
01A6
00E8
00A7
006F
FE08
FFFE
00AA
FF96
FE82
0016
02CE
FF6C
FDD7
0498
FFD5
FF38
0059
0208
FE8E
0356
FE7E
00DC
0166
FF0A
0233
FD1C
0251
FB6D
0185
01F3
FE96
FEDC
0174
01FF
0156
FCF6
01AF
00F6
0096
FFC0
FF3A
0444
FCC8
FED9
0103
FD33
FEF8
001A
FFFC
00AA
FE27
FCE0
0057
FFC5
001A
FF81
FDD8
0001
0005
01F4
FC98
FD78
0036
FF81
FE31
FDBC
FED3
01CA
0082
00A8
028E
00ED
FF45
00F7
0419
FF9A
FBF7
FEF7
FEA0
054D
01C5
0256
FE35
FBC3
0274
00BC
012F
FFF9
FE90
FEE5
FE14
0240
0035
05C3
FFAC
FF94
FF45
FF3D
FE12
0374
0204
FACC
00CB
011A
0366
01AC
FF20
FF8D
FDAB
0081
FFD2
FEB6
FEC8
FF33
011A
FED3
FE10
00CC
0011
017D
033C
FD06
0109
FF66
FE81
02AA
019E
0195
00BE
0033
011E
0026
FD49
FB26
0106
FEDD
0096
FF29
01AA
FF92
0042
01C7
0380
FE74
FFF5
0017
02F2
FEF2
F7F4
FFCA
0066
0074
006A
02E4
FD84
01AB
FBEE
0485
FF17
0041
FD6A
FF3E
FF88
008C
FF45
FE0C
0158
01DE
FD44
FF91
FB23
FE90
FE40
0116
FA43
FEA3
043A
042C
FDDD
0173
00C4
0482
FEB6
00F6
FD5E
016A
005A
FF1E
01E6
0240
FF68
FFE0
03A6
FFF6
FCA9
FFFF
0030
0087
014A
FE02
FB62
FE2C
0153
012D
FDBC
FD10
001F
026D
0106
FE5F
FCE2
01A6
0041
007E
FEDA
FD34
039E
FEFF
FE49
020C
0189
00B5
00DE
F75C
041E
0038
FDCC
FB57
FF1F
FECB
01C1
F96A
00DA
FCC9
FDC0
FF77
0199
FD36
FD78
025B
00C4
00C4
FC39
FED1
FF40
FC89
FF57
FE69
FDA6
0137
FEDD
FF48
0129
0216
0076
FF87
019B
027B
0126
FDD4
FD3F
FC4A
FD72
FDAA
FD52
FF0F
FED0
007C
FE44
FD92
0025
02B1
FFB3
FF47
025E
0184
02C4
FEA4
00B8
03EB
FE19
FC5D
01B6
FEF2
0416
FC2C
038E
FF24
FDE6
0312
FEE0
FD6C
FFD1
FBFE
010A
0100
FF33
FE62
0105
FF00
FCA9
FE66
001C
018C
010E
027B
02D3
008B
04A4
00F0
FC53
03A6
FA1F
00BF
FE0F
0081
FAEE
FF81
0276
0059
FCF6
0304
FFB0
FB38
01DE
00F5
FC58
006A
FE53
034E
FECE
015C
0030
001F
FF8A
04CF
FF32
00F4
FFE5
0142
FD9E
02E2
FF9D
00E0
FF44
FFC1
033D
FE59
02BA
FE94
FD04
FFCB
002A
0155
01FF
048D
F95B
FE58
FE1E
00D6
FF39
FEF0
FF44
FDF8
022E
FC0B
01C8
02F7
0159
0278
FEF0
0268
004C
0046
FBBE
0323
004C
FEAD
02C0
016E
04BB
FF7C
0080
0032
01AF
FF78
FE7C
FA21
009B
FFB8
FE33
FFEE
FF75
016A
FCA6
FC13
00E4
04A6
FF9A
FF05
00B8
FFBF
FDDD
FEFC
FE89
FBA4
019B
0122
000E
0093
014D
FE40
FC2C
0316
FE68
FF44
FF80
FCAB
0434
0067
FC50
002F
0464
FDF4
014C
FF24
FF93
02C2
03CA
FD76
0085
01FD
FE38
0212
0165
FDB2
FC18
0020
FF65
000D
FE61
01FE
0290
02CD
FF07
F831
02C2
FD96
FE2F
FE83