FC58
FD4E
0148
00D1
020F
FE80
0148
FD23
0133
0082
FF23
FF34
FFAA
0014
01EA
009B
010F
FE52
FB3E
FFD4
FD26
FFF8
0126
003E
04E4
FD0C
FC76
0074
FA8F
0174
FE94
FC16
02DA
019D
FAFF
0588
FC24
FE5F
0445
015C
FFBD
0098
FE68
023E
FE56
0240
038A
F8D6
FEE6
01D8
FD90
034C
0579
FE03
031C
FD42
01E4
0334
0026
00FF
FE77
FD52
F73E
FB0C
FBF2
0316
FA2C
FB15
FE45
FDF0
FDD8
020A
01FA
FB56
FE3B
FEA8
012A
FE54
FB66
0024
0002
030A
0194
FBBE
FFA8
F951
FDC4
FD5A
05B4
0444
00C6
035E
FB41
0254
0294
05A0
FCFF
FDCE
FB7A
FD86
029C
02F4
01F6
0282
00D2
FDA4
0029
F7C8
FC63
025C
0211
FC1A
009A
01BB
02A6
007B
026A
FD9E
0102
FCE2
FE0A
FF02
0400
01AA
0104
017D
025E
FF30
070F
01BB
FECD
FF60
0258
FF78
F990
01DE
0130
0114
FC1C
00C3
FE26
0127
FF92
FFC1
0174
0079
0186
FD68
0199
FE0C